<?xml version="1.0"?>
<opencv_storage>
<cascade>
  <stageType>BOOST</stageType>
  <featureType>LBP</featureType>
  <height>18</height>
  <width>36</width>
  <stageParams>
    <boostType>GAB</boostType>
    <minHitRate>9.9500000476837158e-01</minHitRate>
    <maxFalseAlarm>4.4999998807907104e-01</maxFalseAlarm>
    <weightTrimRate>9.4999999999999996e-01</weightTrimRate>
    <maxDepth>1</maxDepth>
    <maxWeakCount>100</maxWeakCount></stageParams>
  <featureParams>
    <maxCatCount>256</maxCatCount>
    <featSize>1</featSize></featureParams>
  <stageNum>13</stageNum>
  <stages>
    <!-- stage 0 -->
    <_>
      <maxWeakCount>5</maxWeakCount>
      <stageThreshold>-2.1829845905303955e+00</stageThreshold>
      <weakClassifiers>
        <_>
          <internalNodes>
            0 -1 24 -235801089 -918095 -34275329 -663631 -50529025
            -475203 -56819713 -991747</internalNodes>
          <leafValues>
            -8.2394552230834961e-01 7.7199208736419678e-01</leafValues></_>
        <_>
          <internalNodes>
            0 -1 57 -34603026 -679477622 -70255634 -1182 -3407890
            -4199442 -15794194 -336616822</internalNodes>
          <leafValues>
            -6.9652158021926880e-01 5.5389088392257690e-01</leafValues></_>
        <_>
          <internalNodes>
            0 -1 32 -251637616 -38141968 2106591513 -537797135 -205096
            -2098185 -539435297 -2105875</internalNodes>
          <leafValues>
            -6.5775525569915771e-01 5.4408234357833862e-01</leafValues></_>
        <_>
          <internalNodes>
            0 -1 74 -332836 -1440039186 1872899116 490254254 1484623324
            477384925 1576836572 -1</internalNodes>
          <leafValues>
            -6.7203819751739502e-01 4.5356032252311707e-01</leafValues></_>
        <_>
          <internalNodes>
            0 -1 93 -1077936380 -11567127 -1346638032 2147160061 -327745
            -513 -1145373956 -29192</internalNodes>
          <leafValues>
            -5.8313655853271484e-01 5.0484395027160645e-01</leafValues></_></weakClassifiers></_>
    <!-- stage 1 -->
    <_>
      <maxWeakCount>6</maxWeakCount>
      <stageThreshold>-1.6582607030868530e+00</stageThreshold>
      <weakClassifiers>
        <_>
          <internalNodes>
            0 -1 19 -36309505 -3022863 -131075 -657935 -50397953
            -1377315 -117637377 -4661763</internalNodes>
          <leafValues>
            -7.8275579214096069e-01 5.4441261291503906e-01</leafValues></_>
        <_>
          <internalNodes>
            0 -1 81 -201328641 -135529473 -33558993 -3089 1887432955
            1911648483 -202639377 1946100651</internalNodes>
          <leafValues>
            -6.4266830682754517e-01 5.6173878908157349e-01</leafValues></_>
        <_>
          <internalNodes>
            0 -1 11 -285806850 -111106 -287375618 -268538370 -537465089
            -17833989 -1107301378 -4521985</internalNodes>
          <leafValues>
            -5.8823186159133911e-01 4.9530315399169922e-01</leafValues></_>
        <_>
          <internalNodes>
            0 -1 75 -1049122 1068510456 -181612620 2142830524 1567217020
            494153212 -197124 -1</internalNodes>
          <leafValues>
            -5.5095696449279785e-01 4.8490151762962341e-01</leafValues></_>
        <_>
          <internalNodes>
            0 -1 14 -1171596068 -7414584 -828194851 -36922164 -410320898
            -1074075652 -1903371314 -1375682420</internalNodes>
          <leafValues>
            -6.2691777944564819e-01 4.4628062844276428e-01</leafValues></_>
        <_>
          <internalNodes>
            0 -1 116 -4349 200212455 -1051358 -84214218 -1111490747
            64749559 -134220544 -135791179</internalNodes>
          <leafValues>
            -5.1843833923339844e-01 4.9741154909133911e-01</leafValues></_></weakClassifiers></_>
    <!-- stage 2 -->
    <_>
      <maxWeakCount>6</maxWeakCount>
      <stageThreshold>-1.4934424161911011e+00</stageThreshold>
      <weakClassifiers>
        <_>
          <internalNodes>
            0 -1 23 -235538433 -5121103 -671744001 -655375 -16777217
            -4325377 -587399169 -459267</internalNodes>
          <leafValues>
            -7.7270627021789551e-01 4.9877148866653442e-01</leafValues></_>
        <_>
          <internalNodes>
            0 -1 71 305274333 -844301 -1 -57871 -1108541441 -262657
            -1142161409 -1078321667</internalNodes>
          <leafValues>
            -5.3366082906723022e-01 5.7732325792312622e-01</leafValues></_>
        <_>
          <internalNodes>
            0 -1 5 -16781329 -319819777 -285225438 -520159538 -135266489
            1635745623 -134219930 -184549377</internalNodes>
          <leafValues>
            -5.0763452053070068e-01 5.6452178955078125e-01</leafValues></_>
        <_>
          <internalNodes>
            0 -1 67 -33559314 -9213953 2099905544 -9044033 -539669284
            1498938751 -572696340 -1</internalNodes>
          <leafValues>
            -5.6449019908905029e-01 4.7631362080574036e-01</leafValues></_>
        <_>
          <internalNodes>
            0 -1 104 -5177600 -8389171 -1656783563 -4489348 -1078083655
            -16449 536723128 -8772</internalNodes>
          <leafValues>
            -6.3188910484313965e-01 4.3866780400276184e-01</leafValues></_>
        <_>
          <internalNodes>
            0 -1 30 -1960837093 463018297 17829915 1035536223 1057075615
            -541378209 -1157383169 -538181889</internalNodes>
          <leafValues>
            -5.1116073131561279e-01 4.7613462805747986e-01</leafValues></_></weakClassifiers></_>
    <!-- stage 3 -->
    <_>
      <maxWeakCount>8</maxWeakCount>
      <stageThreshold>-1.4226047992706299e+00</stageThreshold>
      <weakClassifiers>
        <_>
          <internalNodes>
            0 -1 22 -239995393 -918031 -168689665 -9308175 -50799361
            -4465925 -52625665 -34471939</internalNodes>
          <leafValues>
            -7.5130206346511841e-01 4.4323107600212097e-01</leafValues></_>
        <_>
          <internalNodes>
            0 -1 50 431496701 -829953 -1 -40965 -1073741825 -1
            -1073811457 -1078059527</internalNodes>
          <leafValues>
            -5.5479145050048828e-01 5.5382019281387329e-01</leafValues></_>
        <_>
          <internalNodes>
            0 -1 117 -223 -1879572625 -33554687 -134217739 -1074266283
            129499135 -1744830928 -524297</internalNodes>
          <leafValues>
            -4.7839203476905823e-01 5.3601676225662231e-01</leafValues></_>
        <_>
          <internalNodes>
            0 -1 35 -13050408 -2107172 1750130125 -544421556 -89461048
            -33641730 -599077176 -343242744</internalNodes>
          <leafValues>
            -5.8319622278213501e-01 4.2920446395874023e-01</leafValues></_>
        <_>
          <internalNodes>
            0 -1 83 -3150929 871876535 495780202 1979695023 1397555938
            1378947137 1396471471 2012739503</internalNodes>
          <leafValues>
            -5.5919533967971802e-01 4.3596395850181580e-01</leafValues></_>
        <_>
          <internalNodes>
            0 -1 41 -1074235939 -33923586 -4301441 -4382729 -1074219019
            -360961 -1107386931 -1078307331</internalNodes>
          <leafValues>
            -4.6647042036056519e-01 4.6455892920494080e-01</leafValues></_>
        <_>
          <internalNodes>
            0 -1 4 -553652561 -386928721 -29382934 -352424194 1652551543
            1735819133 -134237355 -251924481</internalNodes>
          <leafValues>
            -4.7124183177947998e-01 4.8780778050422668e-01</leafValues></_>
        <_>
          <internalNodes>
            0 -1 52 -286261489 -319889457 -8425950 -228462597 2004832085
            125271887 -134260988 -134217729</internalNodes>
          <leafValues>
            -4.0753772854804993e-01 5.1579600572586060e-01</leafValues></_></weakClassifiers></_>
    <!-- stage 4 -->
    <_>
      <maxWeakCount>9</maxWeakCount>
      <stageThreshold>-1.7736171483993530e+00</stageThreshold>
      <weakClassifiers>
        <_>
          <internalNodes>
            0 -1 37 -2490369 -8707 -2097153 -2177 -1078394883 -206083
            -1078198273 -549790467</internalNodes>
          <leafValues>
            -6.7078924179077148e-01 6.4358305931091309e-01</leafValues></_>
        <_>
          <internalNodes>
            0 -1 27 -256847361 -39830029 27333119 -15622863 -1124427521
            -917509 -117653793 -786433</internalNodes>
          <leafValues>
            -4.8772192001342773e-01 5.6992888450622559e-01</leafValues></_>
        <_>
          <internalNodes>
            0 -1 90 268442901 -163875 -589825 -49251 -1145110593 -1
            -1346401058 -1078321988</internalNodes>
          <leafValues>
            -4.8068347573280334e-01 4.9961626529693604e-01</leafValues></_>
        <_>
          <internalNodes>
            0 -1 72 -65 -890572882 -1979038718 -938555378 -538970653
            1693433079 -867873529 -488636417</internalNodes>
          <leafValues>
            -4.5257368683815002e-01 5.1387971639633179e-01</leafValues></_>
        <_>
          <internalNodes>
            0 -1 40 153093557 -2469891 -262147 -254623 -1111752961
            -65537 -1078263809 -1082126851</internalNodes>
          <leafValues>
            -4.3614292144775391e-01 4.4859421253204346e-01</leafValues></_>
        <_>
          <internalNodes>
            0 -1 111 -77 -1348206657 -1141523168 -1599029338 -295407
            452451606 -1209048288 -471339225</internalNodes>
          <leafValues>
            -3.8187035918235779e-01 5.2739208936691284e-01</leafValues></_>
        <_>
          <internalNodes>
            0 -1 97 -134763806 2075861663 800194594 466588651 1998064269
            265097904 584460703 2145386495</internalNodes>
          <leafValues>
            -5.0741434097290039e-01 3.8186135888099670e-01</leafValues></_>
        <_>
          <internalNodes>
            0 -1 9 -294727970 -1073837057 -274797330 -805802241
            -620831233 -268435715 -805311745 -12956450</internalNodes>
          <leafValues>
            -4.8737335205078125e-01 4.0072822570800781e-01</leafValues></_>
        <_>
          <internalNodes>
            0 -1 26 -1081582344 -34218104 1837552917 -9496444
            -1229262870 -2524678 -1893175864 -1811266432</internalNodes>
          <leafValues>
            -6.2336045503616333e-01 3.0404111742973328e-01</leafValues></_></weakClassifiers></_>
    <!-- stage 5 -->
    <_>
      <maxWeakCount>9</maxWeakCount>
      <stageThreshold>-2.0930244922637939e+00</stageThreshold>
      <weakClassifiers>
        <_>
          <internalNodes>
            0 -1 62 -1 -13565963 -75694081 -720900 -272629761
            -1087324163 -1 -1</internalNodes>
          <leafValues>
            -6.4486598968505859e-01 5.2274793386459351e-01</leafValues></_>
        <_>
          <internalNodes>
            0 -1 48 -253573637 -604832333 -236945409 2144395127
            -319363329 -16917573 -50790401 -1078927875</internalNodes>
          <leafValues>
            -6.4101582765579224e-01 3.6343899369239807e-01</leafValues></_>
        <_>
          <internalNodes>
            0 -1 112 -209 -982517969 -69210368 -1024524305 -1049340
            1148714479 -134218494 -219152393</internalNodes>
          <leafValues>
            -4.6697327494621277e-01 4.6583870053291321e-01</leafValues></_>
        <_>
          <internalNodes>
            0 -1 65 -240650750 -201853466 -34080801 -169353654
            -201326630 -32785 -26748694 -758913918</internalNodes>
          <leafValues>
            -5.4916638135910034e-01 3.7272363901138306e-01</leafValues></_>
        <_>
          <internalNodes>
            0 -1 49 -1616356035 -541237784 -283881 -583049347 1064626677
            -537997315 -1118027907 -1078321699</internalNodes>
          <leafValues>
            -4.2853677272796631e-01 4.7038242220878601e-01</leafValues></_>
        <_>
          <internalNodes>
            0 -1 1 -23072849 -488069750 -154237942 -1530745214
            -574687385 69491975 595554596 -529008777</internalNodes>
          <leafValues>
            -4.7285243868827820e-01 4.0053036808967590e-01</leafValues></_>
        <_>
          <internalNodes>
            0 -1 63 422598005 -42107395 -67117185 -671268868 -1075970305
            -16385 -1140916481 -1091691019</internalNodes>
          <leafValues>
            -4.6198159456253052e-01 3.9786344766616821e-01</leafValues></_>
        <_>
          <internalNodes>
            0 -1 77 -537935384 -1299389856 1158415360 778284578
            1428635904 1129144389 1459962112 2066743055</internalNodes>
          <leafValues>
            -7.0053100585937500e-01 2.7862268686294556e-01</leafValues></_>
        <_>
          <internalNodes>
            0 -1 110 -75776240 -247857315 2050621041 -537264779 -918087
            -1074007721 1002274281 -1142202887</internalNodes>
          <leafValues>
            -5.2852421998977661e-01 3.6952459812164307e-01</leafValues></_></weakClassifiers></_>
    <!-- stage 6 -->
    <_>
      <maxWeakCount>10</maxWeakCount>
      <stageThreshold>-1.5601720809936523e+00</stageThreshold>
      <weakClassifiers>
        <_>
          <internalNodes>
            0 -1 36 -235671041 -34473985 -1309543937 -34210313
            -105645569 -270341 -33685505 -1</internalNodes>
          <leafValues>
            -6.1590361595153809e-01 5.2738887071609497e-01</leafValues></_>
        <_>
          <internalNodes>
            0 -1 12 -286265345 -320929793 -285212929 -286368322
            -33620241 -4202625 -65539 -188809217</internalNodes>
          <leafValues>
            -4.4506883621215820e-01 4.7962021827697754e-01</leafValues></_>
        <_>
          <internalNodes>
            0 -1 68 -1 -13568008 -34558980 1068547956 -42016838
            498113981 -198146 -458755</internalNodes>
          <leafValues>
            -5.4233372211456299e-01 3.6755490303039551e-01</leafValues></_>
        <_>
          <internalNodes>
            0 -1 108 -13583448 1060716418 462430248 934231615 505429951
            833501224 465518527 2147483647</internalNodes>
          <leafValues>
            -6.2540727853775024e-01 2.9000449180603027e-01</leafValues></_>
        <_>
          <internalNodes>
            0 -1 91 -209526142 -748688402 -1160774966 -236204466
            -252707858 666630723 -607411542 1074520586</internalNodes>
          <leafValues>
            -5.5611693859100342e-01 3.2218313217163086e-01</leafValues></_>
        <_>
          <internalNodes>
            0 -1 101 666525407 -71540867 -2818049 -65540 984702719
            -196609 -1074073697 -1078010371</internalNodes>
          <leafValues>
            -4.4029197096824646e-01 4.3156188726425171e-01</leafValues></_>
        <_>
          <internalNodes>
            0 -1 44 -34219058 -169875518 -1696111998 -768344309
            2012086191 -685791510 -143804726 1076355586</internalNodes>
          <leafValues>
            -4.9754869937896729e-01 3.7757185101509094e-01</leafValues></_>
        <_>
          <internalNodes>
            0 -1 118 -134480085 -411568857 -529615 -138674819
            -1082409163 -950599745 1065334068 -134742027</internalNodes>
          <leafValues>
            -4.2452409863471985e-01 4.2718073725700378e-01</leafValues></_>
        <_>
          <internalNodes>
            0 -1 66 -2138563563 -6946965 1071603157 -202424579
            -1356414980 -18874465 -1077936129 -1396763395</internalNodes>
          <leafValues>
            -4.2013102769851685e-01 4.3826955556869507e-01</leafValues></_>
        <_>
          <internalNodes>
            0 -1 109 -699931262 -145232182 -1217436958 -68961041
            -758125622 929374857 -217954673 1359463050</internalNodes>
          <leafValues>
            -5.0030583143234253e-01 3.6374431848526001e-01</leafValues></_></weakClassifiers></_>
    <!-- stage 7 -->
    <_>
      <maxWeakCount>9</maxWeakCount>
      <stageThreshold>-2.0032939910888672e+00</stageThreshold>
      <weakClassifiers>
        <_>
          <internalNodes>
            0 -1 56 -393729 -557059 -4194305 -35 -1078199297 -197131
            -1141112833 -541401603</internalNodes>
          <leafValues>
            -6.3306754827499390e-01 4.3899261951446533e-01</leafValues></_>
        <_>
          <internalNodes>
            0 -1 20 -1582223311 -1112333889 697504123 -1145882273
            -1716273921 -1891680769 -1728468289 -278529</internalNodes>
          <leafValues>
            -5.2436846494674683e-01 4.3169492483139038e-01</leafValues></_>
        <_>
          <internalNodes>
            0 -1 53 -402657493 -425001041 -1166614014 -222630150
            1475823365 72777551 -201328896 -142606337</internalNodes>
          <leafValues>
            -4.7691345214843750e-01 4.2002350091934204e-01</leafValues></_>
        <_>
          <internalNodes>
            0 -1 86 471866869 -565249 -67374081 -2261001 -1073742337 -5
            -1073872897 -1078454811</internalNodes>
          <leafValues>
            -5.4646116495132446e-01 3.8253298401832581e-01</leafValues></_>
        <_>
          <internalNodes>
            0 -1 3 -319100674 -404328994 -1431796546 -1900091409
            1272759807 -805533185 -849375233 -809766913</internalNodes>
          <leafValues>
            -4.9503126740455627e-01 4.0271627902984619e-01</leafValues></_>
        <_>
          <internalNodes>
            0 -1 113 -2269 -2080899225 -339739744 -1032912926 -268960511
            39321471 -537931232 -1007157257</internalNodes>
          <leafValues>
            -5.0888723134994507e-01 3.4425118565559387e-01</leafValues></_>
        <_>
          <internalNodes>
            0 -1 92 -7363926 1363881402 105644552 256052776 1740613099
            388499259 86968303 1607465599</internalNodes>
          <leafValues>
            -5.9001642465591431e-01 3.1556883454322815e-01</leafValues></_>
        <_>
          <internalNodes>
            0 -1 18 -259943937 -811532895 -1414152737 664928113
            -724647733 -1616139352 -1661022465 -606409251</internalNodes>
          <leafValues>
            -4.3329885601997375e-01 3.9981073141098022e-01</leafValues></_>
        <_>
          <internalNodes>
            0 -1 58 -40370228 -572916510 -52760736 -675290010 -353503314
            -204491012 -228131862 -206573910</internalNodes>
          <leafValues>
            -5.2757644653320312e-01 3.4403938055038452e-01</leafValues></_></weakClassifiers></_>
    <!-- stage 8 -->
    <_>
      <maxWeakCount>11</maxWeakCount>
      <stageThreshold>-1.4543786048889160e+00</stageThreshold>
      <weakClassifiers>
        <_>
          <internalNodes>
            0 -1 84 -1 -6817921 -537068034 -2145 -197124 -33809411
            -197124 -1</internalNodes>
          <leafValues>
            -6.4552932977676392e-01 3.4100499749183655e-01</leafValues></_>
        <_>
          <internalNodes>
            0 -1 43 142611965 -2271393 -1073776641 -1073783297
            -1074003969 -5121 -1073741825 -1073800707</internalNodes>
          <leafValues>
            -4.9472412467002869e-01 4.3651896715164185e-01</leafValues></_>
        <_>
          <internalNodes>
            0 -1 2 -16781585 -420500754 1995384454 -486627798 2138814055
            620176965 1451189316 -262672625</internalNodes>
          <leafValues>
            -4.1068008542060852e-01 4.4341492652893066e-01</leafValues></_>
        <_>
          <internalNodes>
            0 -1 25 -777915169 -6171231 2138890105 -4850223 1683768494
            -557519481 -723456770 -537338403</internalNodes>
          <leafValues>
            -5.2064639329910278e-01 3.4121680259704590e-01</leafValues></_>
        <_>
          <internalNodes>
            0 -1 0 -873730337 -1929270744 -1410486545 567850 -293736513
            268336559 -390082881 134981839</internalNodes>
          <leafValues>
            -5.5046105384826660e-01 3.2483190298080444e-01</leafValues></_>
        <_>
          <internalNodes>
            0 -1 47 -268448254 -428933137 -533011966 -494928998
            2012733254 22773583 -210263610 -487587841</internalNodes>
          <leafValues>
            -5.0489753484725952e-01 2.9372689127922058e-01</leafValues></_>
        <_>
          <internalNodes>
            0 -1 59 1069161981 -537117003 1073684351 -8446083 1065139705
            -163851 -1073840387 -1079370243</internalNodes>
          <leafValues>
            -3.8332933187484741e-01 4.3308180570602417e-01</leafValues></_>
        <_>
          <internalNodes>
            0 -1 100 -3155222 -204766880 319160834 -150744419 1900482770
            1346380642 1078198921 1398273503</internalNodes>
          <leafValues>
            -5.3022044897079468e-01 3.0976590514183044e-01</leafValues></_>
        <_>
          <internalNodes>
            0 -1 94 -3182848 2146432063 2147482924 423288681 -491553951
            -89392145 -2080452288 -614736387</internalNodes>
          <leafValues>
            -6.0061705112457275e-01 2.5418621301651001e-01</leafValues></_>
        <_>
          <internalNodes>
            0 -1 64 -1625071651 -1943560 -1048585 -2134063 -1094918930
            -8193 -1346699540 1065485813</internalNodes>
          <leafValues>
            -4.5272281765937805e-01 3.1793144345283508e-01</leafValues></_>
        <_>
          <internalNodes>
            0 -1 106 -286271550 -244125597 306758464 -1322257472
            -255003989 552332039 -337522006 1363927883</internalNodes>
          <leafValues>
            -4.5452857017517090e-01 3.5421258211135864e-01</leafValues></_></weakClassifiers></_>
    <!-- stage 9 -->
    <_>
      <maxWeakCount>10</maxWeakCount>
      <stageThreshold>-1.5197257995605469e+00</stageThreshold>
      <weakClassifiers>
        <_>
          <internalNodes>
            0 -1 33 -201328641 -201589761 -33 -145358857 -134220289
            -16793677 -989859841 -680001537</internalNodes>
          <leafValues>
            -6.2328183650970459e-01 3.8542765378952026e-01</leafValues></_>
        <_>
          <internalNodes>
            0 -1 79 991959027 -33603597 -1073905665 -32771 -1073741825
            -65797 -1079017473 -1074315529</internalNodes>
          <leafValues>
            -4.4823905825614929e-01 4.0622016787528992e-01</leafValues></_>
        <_>
          <internalNodes>
            0 -1 114 -1048797 -811073561 -738197728 -520880401 -42470121
            -1900548689 -1241532928 -671612937</internalNodes>
          <leafValues>
            -4.3850284814834595e-01 4.0419629216194153e-01</leafValues></_>
        <_>
          <internalNodes>
            0 -1 82 -67895302 -1218724869 -1162769926 935050207
            1568520185 1544884468 2147069950 1575835133</internalNodes>
          <leafValues>
            -5.6012225151062012e-01 2.8090572357177734e-01</leafValues></_>
        <_>
          <internalNodes>
            0 -1 28 -30893936 -608870437 -1112008547 -393251 -3408033
            -5259362 -4129 -4202689</internalNodes>
          <leafValues>
            -4.6330133080482483e-01 3.4842658042907715e-01</leafValues></_>
        <_>
          <internalNodes>
            0 -1 6 -923802129 -286589009 -318779798 -487129394
            -402655409 1702327135 -403212668 -185074177</internalNodes>
          <leafValues>
            -4.6044018864631653e-01 3.1700649857521057e-01</leafValues></_>
        <_>
          <internalNodes>
            0 -1 16 -1198981124 -33762176 197066719 -1653849024
            -91553798 -273701240 -1440718886 8</internalNodes>
          <leafValues>
            -6.6824585199356079e-01 2.7105587720870972e-01</leafValues></_>
        <_>
          <internalNodes>
            0 -1 70 -90472449 -1095215619 -276844549 2012798329
            -1078199081 -1085472779 708573171 -1623532163</internalNodes>
          <leafValues>
            -4.1269102692604065e-01 3.8689067959785461e-01</leafValues></_>
        <_>
          <internalNodes>
            0 -1 46 -822096121 1722806063 -403011808 -672202833
            -10490106 1196941071 -251677406 -209715506</internalNodes>
          <leafValues>
            -3.4834653139114380e-01 4.3339589238166809e-01</leafValues></_>
        <_>
          <internalNodes>
            0 -1 13 -268480513 -599554 -129 -119490 -8500998 -196673
            -12783617 -1409153</internalNodes>
          <leafValues>
            -3.0849990248680115e-01 5.2187424898147583e-01</leafValues></_></weakClassifiers></_>
    <!-- stage 10 -->
    <_>
      <maxWeakCount>11</maxWeakCount>
      <stageThreshold>-1.5453439950942993e+00</stageThreshold>
      <weakClassifiers>
        <_>
          <internalNodes>
            0 -1 34 -235670017 -202114053 -268435457 -177086477
            -1228937493 -16781325 -1058025985 -680001545</internalNodes>
          <leafValues>
            -6.3236361742019653e-01 2.5991669297218323e-01</leafValues></_>
        <_>
          <internalNodes>
            0 -1 73 -1 -672141393 -2113731837 17810946 -16780485
            -419968229 -145800437 -17825921</internalNodes>
          <leafValues>
            -4.2880916595458984e-01 4.4897103309631348e-01</leafValues></_>
        <_>
          <internalNodes>
            0 -1 105 -134482059 -8650913 1879015293 2147467263
            -1073741827 -280643 -1615085571 -8707</internalNodes>
          <leafValues>
            -3.8601732254028320e-01 4.4383895397186279e-01</leafValues></_>
        <_>
          <internalNodes>
            0 -1 60 -1677173291 -834083 -1088422401 -3186691 -1074204673
            -196865 -1077952513 -1078190595</internalNodes>
          <leafValues>
            -3.8137832283973694e-01 4.0449202060699463e-01</leafValues></_>
        <_>
          <internalNodes>
            0 -1 78 -8392788 1747707886 -29438912 758757878 1507677660
            225777560 498949324 1543502799</internalNodes>
          <leafValues>
            -6.2384325265884399e-01 2.6810708642005920e-01</leafValues></_>
        <_>
          <internalNodes>
            0 -1 29 -285217018 -362086674 -152098398 -222626818
            1988095247 85945695 2011689090 -167774241</internalNodes>
          <leafValues>
            -4.2963305115699768e-01 3.5001647472381592e-01</leafValues></_>
        <_>
          <internalNodes>
            0 -1 10 -319922562 -1073985793 1734010621 -496130 1305903103
            -273695745 -973081602 -576168657</internalNodes>
          <leafValues>
            -4.8249170184135437e-01 3.1695559620857239e-01</leafValues></_>
        <_>
          <internalNodes>
            0 -1 15 -5316866 -10495292 -161153635 1456391236 -282415110
            -2463780 -813105204 -2104852342</internalNodes>
          <leafValues>
            -5.1473188400268555e-01 2.9390466213226318e-01</leafValues></_>
        <_>
          <internalNodes>
            0 -1 95 -138357632 -706267158 -600841598 -70805938
            2029040267 -697313469 660843178 1107492866</internalNodes>
          <leafValues>
            -6.2504726648330688e-01 2.1684223413467407e-01</leafValues></_>
        <_>
          <internalNodes>
            0 -1 85 -805327074 2137700326 1072706292 968114063
            1144799740 496779260 444365274 805208063</internalNodes>
          <leafValues>
            -5.4388248920440674e-01 2.1218320727348328e-01</leafValues></_>
        <_>
          <internalNodes>
            0 -1 89 -1483034915 -1076344391 -1361641505 -544669832
            -1380794372 -1104097545 -1162168335 -1623565827</internalNodes>
          <leafValues>
            -3.8602921366691589e-01 3.5141229629516602e-01</leafValues></_></weakClassifiers></_>
    <!-- stage 11 -->
    <_>
      <maxWeakCount>13</maxWeakCount>
      <stageThreshold>-1.5325874090194702e+00</stageThreshold>
      <weakClassifiers>
        <_>
          <internalNodes>
            0 -1 21 -239995393 -5111887 -1108213761 -933903 -33570881
            -1079268353 -855834625 -262433</internalNodes>
          <leafValues>
            -6.0755306482315063e-01 2.9051500558853149e-01</leafValues></_>
        <_>
          <internalNodes>
            0 -1 115 -4194383 -241696861 -2621648 -169345385 -1212678351
            -1380844577 -1241514192 -134742153</internalNodes>
          <leafValues>
            -4.4378989934921265e-01 3.8998821377754211e-01</leafValues></_>
        <_>
          <internalNodes>
            0 -1 80 -144443433 -526857 -69214209 -136972458 -203950193
            -77596833 -573325825 2000910151</internalNodes>
          <leafValues>
            -4.4611206650733948e-01 3.6987254023551941e-01</leafValues></_>
        <_>
          <internalNodes>
            0 -1 87 470824437 -32899 -71304195 -32771 -1610743809
            -1048577 -1075314689 -1111745027</internalNodes>
          <leafValues>
            -4.9202057719230652e-01 3.1346154212951660e-01</leafValues></_>
        <_>
          <internalNodes>
            0 -1 31 -335548657 -420544641 2062498306 -152911878
            1207954693 91451151 -150997116 -134479873</internalNodes>
          <leafValues>
            -3.5106727480888367e-01 4.3565958738327026e-01</leafValues></_>
        <_>
          <internalNodes>
            0 -1 102 -9047121 2138120865 758055065 2113879983 526659835
            402661585 1387902463 2147221439</internalNodes>
          <leafValues>
            -4.1011184453964233e-01 3.3774366974830627e-01</leafValues></_>
        <_>
          <internalNodes>
            0 -1 88 -1145516067 -537330179 -6296065 -538148932
            -1114571267 -126025767 -1078214689 -1078310439</internalNodes>
          <leafValues>
            -3.8356557488441467e-01 3.7476888298988342e-01</leafValues></_>
        <_>
          <internalNodes>
            0 -1 61 -150994950 923856892 -1501778500 1068563444
            -1336016392 170918204 -579386090 2142564351</internalNodes>
          <leafValues>
            -5.5827474594116211e-01 2.5084567070007324e-01</leafValues></_>
        <_>
          <internalNodes>
            0 -1 7 -419524866 799977214 802089695 -1346654466 2105334719
            719282170 -898714177 -1346745089</internalNodes>
          <leafValues>
            -5.0509959459304810e-01 2.6278451085090637e-01</leafValues></_>
        <_>
          <internalNodes>
            0 -1 51 -2101489 -483463173 -486540798 -152371222 -541070067
            124223343 -184552460 -671614977</internalNodes>
          <leafValues>
            -3.7273991107940674e-01 3.5901236534118652e-01</leafValues></_>
        <_>
          <internalNodes>
            0 -1 69 -896275934 -1254884601 -59713296 -1087320315
            1545504894 -667939536 1325191135 2121300861</internalNodes>
          <leafValues>
            -5.5527997016906738e-01 2.5895944237709045e-01</leafValues></_>
        <_>
          <internalNodes>
            0 -1 42 -1449130823 -1614739987 -12666885 -10658987
            -1363345921 -5243427 1040153599 983570924</internalNodes>
          <leafValues>
            -5.2096670866012573e-01 2.4661315977573395e-01</leafValues></_>
        <_>
          <internalNodes>
            0 -1 103 -206854912 -3205199 2117011728 1874561433
            -1459740885 -1678038513 522923069 -1677739779</internalNodes>
          <leafValues>
            -5.6203579902648926e-01 2.5036087632179260e-01</leafValues></_></weakClassifiers></_>
    <!-- stage 12 -->
    <_>
      <maxWeakCount>13</maxWeakCount>
      <stageThreshold>-1.9441057443618774e+00</stageThreshold>
      <weakClassifiers>
        <_>
          <internalNodes>
            0 -1 55 -1325494017 -251699393 -1107476609 -235848705
            -385892161 -3 -1359036417 -11010561</internalNodes>
          <leafValues>
            -6.0236459970474243e-01 2.8058987855911255e-01</leafValues></_>
        <_>
          <internalNodes>
            0 -1 8 -285216785 -327227929 -286921010 -286871826 -67123377
            -46178307 -16781596 -184549377</internalNodes>
          <leafValues>
            -4.4297617673873901e-01 3.7486848235130310e-01</leafValues></_>
        <_>
          <internalNodes>
            0 -1 54 -795622733 -80496847 -1327433231 -34209931
            1827921599 -1095309839 -1930379585 -38756755</internalNodes>
          <leafValues>
            -4.6505543589591980e-01 3.2201105356216431e-01</leafValues></_>
        <_>
          <internalNodes>
            0 -1 45 -789250051 -790236145 -2238465 -705299153 -117964801
            -8389745 -251924577 15466475</internalNodes>
          <leafValues>
            -4.4601270556449890e-01 3.3147284388542175e-01</leafValues></_>
        <_>
          <internalNodes>
            0 -1 17 -1314836463 -1113517263 -1649329837 -1110360267
            -1195396935 -1615873109 -1939300613 -1115963653</internalNodes>
          <leafValues>
            -3.6004719138145447e-01 3.7762948870658875e-01</leafValues></_>
        <_>
          <internalNodes>
            0 -1 118 -168820989 -685901007 -704909519 -1073741994
            -1082130635 -817891329 -1073754320 -138412545</internalNodes>
          <leafValues>
            -3.6445164680480957e-01 3.6178162693977356e-01</leafValues></_>
        <_>
          <internalNodes>
            0 -1 98 -1288563439 -138062497 2012741597 1606309375
            -1708614725 -1079509787 254459071 1069168157</internalNodes>
          <leafValues>
            -4.0269130468368530e-01 3.5272639989852905e-01</leafValues></_>
        <_>
          <internalNodes>
            0 -1 96 -833630462 -993099962 -353410558 1391392571
            -461375659 1098897239 -763366270 -218103905</internalNodes>
          <leafValues>
            -4.3325147032737732e-01 3.0404734611511230e-01</leafValues></_>
        <_>
          <internalNodes>
            0 -1 76 -67896333 -553649441 -334691837 1074766114
            -294653141 1181639693 1663984139 -8390913</internalNodes>
          <leafValues>
            -3.0104935169219971e-01 4.2261838912963867e-01</leafValues></_>
        <_>
          <internalNodes>
            0 -1 38 824728853 -1658368523 -2105347 -1610752994 -10162180
            -1073758787 -1209098372 -1078307524</internalNodes>
          <leafValues>
            -4.4379252195358276e-01 2.8835919499397278e-01</leafValues></_>
        <_>
          <internalNodes>
            0 -1 99 -176295742 -213405046 -729710080 -543431811
            855744708 799584 67488902 1394589935</internalNodes>
          <leafValues>
            -5.1165360212326050e-01 2.3753874003887177e-01</leafValues></_>
        <_>
          <internalNodes>
            0 -1 39 201349365 -1144366179 -1122502659 -6422825
            -1426128899 -813699601 -1117848577 -1095213864</internalNodes>
          <leafValues>
            -4.5795980095863342e-01 2.6026037335395813e-01</leafValues></_>
        <_>
          <internalNodes>
            0 -1 107 -609230358 1407164742 272957440 286459850
            -976305973 554308074 -1834757430 419947146</internalNodes>
          <leafValues>
            -4.9537861347198486e-01 2.3090326786041260e-01</leafValues></_></weakClassifiers></_></stages>
  <features>
    <_>
      <rect>
        0 1 8 5</rect></_>
    <_>
      <rect>
        0 4 1 2</rect></_>
    <_>
      <rect>
        0 4 1 3</rect></_>
    <_>
      <rect>
        0 6 3 4</rect></_>
    <_>
      <rect>
        0 7 1 1</rect></_>
    <_>
      <rect>
        0 8 1 1</rect></_>
    <_>
      <rect>
        0 9 1 1</rect></_>
    <_>
      <rect>
        0 9 4 3</rect></_>
    <_>
      <rect>
        0 11 1 1</rect></_>
    <_>
      <rect>
        0 11 4 2</rect></_>
    <_>
      <rect>
        0 12 3 2</rect></_>
    <_>
      <rect>
        0 12 4 2</rect></_>
    <_>
      <rect>
        0 13 1 1</rect></_>
    <_>
      <rect>
        0 15 3 1</rect></_>
    <_>
      <rect>
        1 0 9 2</rect></_>
    <_>
      <rect>
        1 1 10 2</rect></_>
    <_>
      <rect>
        2 1 5 2</rect></_>
    <_>
      <rect>
        3 10 8 2</rect></_>
    <_>
      <rect>
        3 11 10 2</rect></_>
    <_>
      <rect>
        3 12 10 2</rect></_>
    <_>
      <rect>
        4 9 8 2</rect></_>
    <_>
      <rect>
        4 11 8 2</rect></_>
    <_>
      <rect>
        4 11 9 2</rect></_>
    <_>
      <rect>
        4 12 8 2</rect></_>
    <_>
      <rect>
        4 12 9 2</rect></_>
    <_>
      <rect>
        4 12 10 2</rect></_>
    <_>
      <rect>
        5 0 8 2</rect></_>
    <_>
      <rect>
        5 10 9 2</rect></_>
    <_>
      <rect>
        6 6 10 4</rect></_>
    <_>
      <rect>
        6 7 1 1</rect></_>
    <_>
      <rect>
        6 7 9 3</rect></_>
    <_>
      <rect>
        6 8 1 1</rect></_>
    <_>
      <rect>
        6 9 10 3</rect></_>
    <_>
      <rect>
        6 12 8 1</rect></_>
    <_>
      <rect>
        6 12 9 1</rect></_>
    <_>
      <rect>
        7 1 9 2</rect></_>
    <_>
      <rect>
        7 10 7 2</rect></_>
    <_>
      <rect>
        7 15 6 1</rect></_>
    <_>
      <rect>
        8 15 2 1</rect></_>
    <_>
      <rect>
        9 0 1 1</rect></_>
    <_>
      <rect>
        9 0 2 1</rect></_>
    <_>
      <rect>
        9 15 2 1</rect></_>
    <_>
      <rect>
        10 0 2 1</rect></_>
    <_>
      <rect>
        10 1 2 1</rect></_>
    <_>
      <rect>
        10 2 2 3</rect></_>
    <_>
      <rect>
        10 2 3 2</rect></_>
    <_>
      <rect>
        10 5 1 1</rect></_>
    <_>
      <rect>
        10 7 1 1</rect></_>
    <_>
      <rect>
        10 12 6 2</rect></_>
    <_>
      <rect>
        10 15 3 1</rect></_>
    <_>
      <rect>
        11 0 2 1</rect></_>
    <_>
      <rect>
        11 6 1 1</rect></_>
    <_>
      <rect>
        11 7 1 1</rect></_>
    <_>
      <rect>
        11 8 1 1</rect></_>
    <_>
      <rect>
        11 11 4 2</rect></_>
    <_>
      <rect>
        11 11 6 1</rect></_>
    <_>
      <rect>
        11 15 5 1</rect></_>
    <_>
      <rect>
        12 1 4 3</rect></_>
    <_>
      <rect>
        12 3 4 2</rect></_>
    <_>
      <rect>
        12 15 2 1</rect></_>
    <_>
      <rect>
        13 0 2 1</rect></_>
    <_>
      <rect>
        13 6 2 4</rect></_>
    <_>
      <rect>
        13 9 2 3</rect></_>
    <_>
      <rect>
        14 0 1 1</rect></_>
    <_>
      <rect>
        14 0 3 1</rect></_>
    <_>
      <rect>
        14 0 3 3</rect></_>
    <_>
      <rect>
        14 1 2 1</rect></_>
    <_>
      <rect>
        14 5 3 4</rect></_>
    <_>
      <rect>
        14 9 2 3</rect></_>
    <_>
      <rect>
        14 10 3 2</rect></_>
    <_>
      <rect>
        14 15 5 1</rect></_>
    <_>
      <rect>
        15 0 3 1</rect></_>
    <_>
      <rect>
        15 4 2 3</rect></_>
    <_>
      <rect>
        15 5 2 2</rect></_>
    <_>
      <rect>
        15 5 2 4</rect></_>
    <_>
      <rect>
        15 6 2 4</rect></_>
    <_>
      <rect>
        16 5 2 2</rect></_>
    <_>
      <rect>
        16 5 2 3</rect></_>
    <_>
      <rect>
        16 5 2 4</rect></_>
    <_>
      <rect>
        17 1 2 1</rect></_>
    <_>
      <rect>
        17 2 3 2</rect></_>
    <_>
      <rect>
        17 2 3 4</rect></_>
    <_>
      <rect>
        17 3 3 5</rect></_>
    <_>
      <rect>
        17 5 3 3</rect></_>
    <_>
      <rect>
        17 9 2 3</rect></_>
    <_>
      <rect>
        18 9 2 2</rect></_>
    <_>
      <rect>
        19 0 1 1</rect></_>
    <_>
      <rect>
        20 0 1 1</rect></_>
    <_>
      <rect>
        20 15 2 1</rect></_>
    <_>
      <rect>
        20 15 3 1</rect></_>
    <_>
      <rect>
        21 0 2 1</rect></_>
    <_>
      <rect>
        21 1 2 3</rect></_>
    <_>
      <rect>
        21 5 2 3</rect></_>
    <_>
      <rect>
        21 12 5 2</rect></_>
    <_>
      <rect>
        21 13 5 1</rect></_>
    <_>
      <rect>
        22 2 2 2</rect></_>
    <_>
      <rect>
        22 6 1 1</rect></_>
    <_>
      <rect>
        22 6 2 3</rect></_>
    <_>
      <rect>
        23 0 3 1</rect></_>
    <_>
      <rect>
        23 5 2 2</rect></_>
    <_>
      <rect>
        23 6 2 2</rect></_>
    <_>
      <rect>
        23 15 2 1</rect></_>
    <_>
      <rect>
        24 6 2 3</rect></_>
    <_>
      <rect>
        24 10 4 2</rect></_>
    <_>
      <rect>
        24 11 4 2</rect></_>
    <_>
      <rect>
        24 12 4 2</rect></_>
    <_>
      <rect>
        25 3 2 2</rect></_>
    <_>
      <rect>
        26 5 2 2</rect></_>
    <_>
      <rect>
        26 7 2 3</rect></_>
    <_>
      <rect>
        27 1 2 3</rect></_>
    <_>
      <rect>
        27 11 3 2</rect></_>
    <_>
      <rect>
        33 4 1 3</rect></_>
    <_>
      <rect>
        33 6 1 1</rect></_>
    <_>
      <rect>
        33 7 1 1</rect></_>
    <_>
      <rect>
        33 9 1 1</rect></_>
    <_>
      <rect>
        33 9 1 2</rect></_>
    <_>
      <rect>
        33 10 1 1</rect></_>
    <_>
      <rect>
        33 11 1 1</rect></_>
    <_>
      <rect>
        33 12 1 1</rect></_></features></cascade>
</opencv_storage>
